#ifndef SINE_MODEL_H
#define SINE_MODEL_H


unsigned int sine_model_len = 3008;
unsigned char sine_model[] = {
 0x24, 0x00, 0x00, 0x00, 0x54, 0x46, 0x4c, 0x33, 0x00, 0x00, 0x00, 0x00,
  0x00, 0x00, 0x00, 0x00, 0x14, 0x00, 0x20, 0x00, 0x04, 0x00, 0x08, 0x00,
  0x0c, 0x00, 0x10, 0x00, 0x14, 0x00, 0x00, 0x00, 0x18, 0x00, 0x1c, 0x00,
  0x14, 0x00, 0x00, 0x00, 0x03, 0x00, 0x00, 0x00, 0x70, 0x0b, 0x00, 0x00,
  0xe8, 0x06, 0x00, 0x00, 0xd0, 0x06, 0x00, 0x00, 0xb8, 0x00, 0x00, 0x00,
  0x80, 0x00, 0x00, 0x00, 0x04, 0x00, 0x00, 0x00, 0x01, 0x00, 0x00, 0x00,
  0x10, 0x00, 0x00, 0x00, 0x00, 0x00, 0x0a, 0x00, 0x10, 0x00, 0x04, 0x00,
  0x08, 0x00, 0x0c, 0x00, 0x0a, 0x00, 0x00, 0x00, 0x40, 0x00, 0x00, 0x00,
  0x1c, 0x00, 0x00, 0x00, 0x04, 0x00, 0x00, 0x00, 0x0f, 0x00, 0x00, 0x00,
  0x73, 0x65, 0x72, 0x76, 0x69, 0x6e, 0x67, 0x5f, 0x64, 0x65, 0x66, 0x61,
  0x75, 0x6c, 0x74, 0x00, 0x01, 0x00, 0x00, 0x00, 0x04, 0x00, 0x00, 0x00,
  0xc0, 0xff, 0xff, 0xff, 0x08, 0x00, 0x00, 0x00, 0x09, 0x00, 0x00, 0x00,
  0x07, 0x00, 0x00, 0x00, 0x64, 0x65, 0x6e, 0x73, 0x65, 0x5f, 0x32, 0x00,
  0x01, 0x00, 0x00, 0x00, 0x04, 0x00, 0x00, 0x00, 0xd6, 0xf9, 0xff, 0xff,
  0x04, 0x00, 0x00, 0x00, 0x0b, 0x00, 0x00, 0x00, 0x64, 0x65, 0x6e, 0x73,
  0x65, 0x5f, 0x69, 0x6e, 0x70, 0x75, 0x74, 0x00, 0x01, 0x00, 0x00, 0x00,
  0x0c, 0x00, 0x00, 0x00, 0x08, 0x00, 0x0c, 0x00, 0x04, 0x00, 0x08, 0x00,
  0x08, 0x00, 0x00, 0x00, 0x08, 0x00, 0x00, 0x00, 0x0b, 0x00, 0x00, 0x00,
  0x13, 0x00, 0x00, 0x00, 0x6d, 0x69, 0x6e, 0x5f, 0x72, 0x75, 0x6e, 0x74,
  0x69, 0x6d, 0x65, 0x5f, 0x76, 0x65, 0x72, 0x73, 0x69, 0x6f, 0x6e, 0x00,
  0x0c, 0x00, 0x00, 0x00, 0x08, 0x06, 0x00, 0x00, 0xf4, 0x05, 0x00, 0x00,
  0xd8, 0x05, 0x00, 0x00, 0x74, 0x05, 0x00, 0x00, 0x20, 0x05, 0x00, 0x00,
  0xcc, 0x04, 0x00, 0x00, 0xb8, 0x00, 0x00, 0x00, 0x64, 0x00, 0x00, 0x00,
  0x58, 0x00, 0x00, 0x00, 0x44, 0x00, 0x00, 0x00, 0x30, 0x00, 0x00, 0x00,
  0x04, 0x00, 0x00, 0x00, 0x56, 0xfa, 0xff, 0xff, 0x04, 0x00, 0x00, 0x00,
  0x10, 0x00, 0x00, 0x00, 0x31, 0x2e, 0x35, 0x2e, 0x30, 0x00, 0x00, 0x00,
  0x00, 0x00, 0x00, 0x00, 0x00, 0x00, 0x00, 0x00, 0x00, 0x00, 0x00, 0x00,
  0x00, 0x00, 0x00, 0x00, 0x00, 0x00, 0x00, 0x00, 0xe8, 0xf5, 0xff, 0xff,
  0x00, 0x00, 0x00, 0x00, 0x00, 0x00, 0x00, 0x00, 0x00, 0x00, 0x00, 0x00,
  0xf8, 0xf5, 0xff, 0xff, 0x00, 0x00, 0x00, 0x00, 0x00, 0x00, 0x00, 0x00,
  0x00, 0x00, 0x00, 0x00, 0x08, 0xf6, 0xff, 0xff, 0x00, 0x00, 0x00, 0x00,
  0xa6, 0xfa, 0xff, 0xff, 0x04, 0x00, 0x00, 0x00, 0x40, 0x00, 0x00, 0x00,
  0xbc, 0x97, 0xcd, 0xbe, 0x86, 0xd1, 0x22, 0x3f, 0x66, 0x62, 0x3b, 0x3d,
  0x1f, 0xa0, 0xb4, 0xbe, 0xaf, 0x70, 0x39, 0xbf, 0x60, 0x90, 0x06, 0xbf,
  0x66, 0x09, 0x87, 0xbf, 0x6a, 0x96, 0xae, 0xbe, 0x7b, 0x8a, 0x90, 0x3f,
  0x3e, 0x1d, 0x17, 0x3f, 0xb9, 0xb2, 0x3f, 0xbf, 0xec, 0x33, 0x7f, 0xbe,
  0x0e, 0x5c, 0x6b, 0xbf, 0x2f, 0x4c, 0xbd, 0x3d, 0x70, 0x26, 0x34, 0x3f,
  0x99, 0x3b, 0x3d, 0x3f, 0x00, 0x00, 0x00, 0x00, 0xf6, 0xfa, 0xff, 0xff,
  0x04, 0x00, 0x00, 0x00, 0x00, 0x04, 0x00, 0x00, 0x40, 0xea, 0x5e, 0xbc,
  0x54, 0x74, 0xcc, 0xbe, 0xde, 0x18, 0x1d, 0x3e, 0x5b, 0xb4, 0x94, 0x3e,
  0xf0, 0xd0, 0xcd, 0xbd, 0x0a, 0x25, 0x55, 0xbe, 0xed, 0xda, 0xcc, 0x3e,
  0x0f, 0x5d, 0x52, 0xbe, 0xec, 0xd6, 0x98, 0x3d, 0x2d, 0x39, 0xa1, 0x3e,
  0x97, 0x2e, 0x8c, 0x3e, 0xee, 0x0d, 0x69, 0x3e, 0x0b, 0x31, 0xc3, 0xbe,
  0x98, 0xd3, 0x96, 0xbe, 0x8c, 0x65, 0x46, 0xbe, 0x91, 0x34, 0x8b, 0xbe,
  0x8d, 0xc2, 0x8e, 0x3e, 0xa2, 0x63, 0xaa, 0x3e, 0xe6, 0xff, 0x37, 0x3e,
  0x38, 0x94, 0x29, 0x3d, 0xd0, 0xd9, 0x4a, 0x3d, 0xc8, 0x86, 0x70, 0x3f,
  0x96, 0x3d, 0xce, 0x3e, 0xdd, 0x06, 0xa1, 0x3e, 0x9d, 0xb5, 0x01, 0xbd,
  0x8c, 0x50, 0xb4, 0xbe, 0xe7, 0x48, 0xba, 0x3e, 0x60, 0x9b, 0xb9, 0xbc,
  0xa0, 0x52, 0x6e, 0x3c, 0xc6, 0xc1, 0xce, 0xbd, 0x3c, 0x0b, 0x26, 0xbe,
  0x07, 0x5f, 0x10, 0x3e, 0xb6, 0x02, 0x8e, 0xbe, 0xa6, 0xf4, 0xae, 0xbe,
  0xbf, 0x98, 0xd4, 0x3e, 0x4c, 0x3d, 0x8f, 0x3d, 0x97, 0x5b, 0x9d, 0x3e,
  0xf7, 0xa1, 0xa2, 0xbd, 0xdb, 0xf2, 0x55, 0xbe, 0x88, 0xd8, 0xad, 0xbe,
  0x77, 0xfc, 0xc4, 0x3e, 0x86, 0x79, 0x15, 0xbe, 0xfe, 0x20, 0x9c, 0xbe,
  0xe0, 0x70, 0x0e, 0x3d, 0xf5, 0xc7, 0x8a, 0x3e, 0xe0, 0x71, 0xc9, 0x3d,
  0xe9, 0x4c, 0x83, 0x3e, 0x50, 0x1a, 0x5c, 0x3d, 0xea, 0xbc, 0xc2, 0xbe,
  0x59, 0x18, 0xc8, 0x3e, 0xba, 0x5b, 0xd6, 0xbe, 0xf7, 0xd9, 0xa0, 0x3e,
  0x64, 0x24, 0xff, 0xbd, 0x84, 0x1e, 0xe9, 0xbd, 0x70, 0x79, 0x1b, 0xbd,
  0xe4, 0x5f, 0x5d, 0xbe, 0x36, 0x93, 0xda, 0xbe, 0xd1, 0x4d, 0xd9, 0x3e,
  0x6f, 0x4a, 0xb9, 0x3e, 0x5d, 0x43, 0xb6, 0x3e, 0x58, 0xd7, 0x67, 0xbe,
  0xf8, 0xa9, 0xcf, 0xbe, 0x60, 0xdc, 0x55, 0x3c, 0x0e, 0xec, 0x60, 0x3e,
  0x06, 0xd8, 0x3e, 0xbb, 0xcb, 0xd0, 0xdb, 0x3e, 0x30, 0xb6, 0x4a, 0x3d,
  0x4f, 0xfc, 0xb5, 0xbe, 0x4c, 0x13, 0xe2, 0x3d, 0x5a, 0x35, 0xbe, 0xbf,
  0xab, 0xcd, 0x03, 0xbf, 0xbe, 0x6a, 0x73, 0x3e, 0xf7, 0x2c, 0x99, 0x3e,
  0x9c, 0xe9, 0xf8, 0x3d, 0xd2, 0xee, 0xda, 0xbe, 0x34, 0x3c, 0x87, 0xbe,
  0xa6, 0x63, 0xb8, 0xbe, 0x47, 0xdd, 0x0a, 0xbe, 0x12, 0xc0, 0x26, 0xbe,
  0x78, 0xad, 0xc9, 0xbd, 0xeb, 0x7d, 0xaf, 0xbe, 0x0a, 0x0a, 0xaf, 0x3e,
  0xb2, 0x11, 0x2d, 0x3e, 0x87, 0x44, 0xb1, 0xbe, 0xfe, 0xed, 0x13, 0xbe,
  0xf2, 0x03, 0xcb, 0xbf, 0xed, 0x9e, 0x37, 0xbe, 0xcc, 0xf0, 0x8d, 0xbd,
  0xc3, 0x14, 0xcf, 0x3e, 0x14, 0x2c, 0xfa, 0x3d, 0x2d, 0x48, 0x47, 0xbe,
  0x8a, 0x3c, 0x0c, 0xbe, 0x6a, 0xea, 0x9f, 0xbe, 0x56, 0x39, 0x6e, 0x3e,
  0xcd, 0xc7, 0x92, 0x3e, 0xab, 0xae, 0x33, 0xbf, 0x2a, 0xe2, 0x1b, 0xbf,
  0x57, 0x15, 0x5f, 0xbe, 0x3c, 0x5f, 0xb7, 0xbd, 0xd1, 0xea, 0xc8, 0xbe,
  0x32, 0x4d, 0x81, 0xbe, 0xc3, 0x32, 0xea, 0x3e, 0x5f, 0xb2, 0x50, 0xbe,
  0x12, 0xda, 0x0a, 0x3e, 0x9e, 0xca, 0xa7, 0xbe, 0xa0, 0xb7, 0x63, 0xbd,
  0x02, 0x32, 0x44, 0x3e, 0x0c, 0xb6, 0xa2, 0xbe, 0xe1, 0xdd, 0xd2, 0xbe,
  0xf2, 0xab, 0x06, 0x3f, 0x2b, 0x4e, 0x8b, 0x3e, 0x68, 0xb0, 0x08, 0xbe,
  0xe9, 0x1b, 0xf6, 0xbe, 0x62, 0x8b, 0xd9, 0x3d, 0x22, 0x4c, 0x15, 0xbe,
  0xab, 0xb5, 0xbc, 0x3e, 0x20, 0x19, 0x8b, 0xbd, 0xd9, 0x0c, 0x9a, 0x3e,
  0x8d, 0x4a, 0xd6, 0xbe, 0x43, 0x52, 0xa4, 0xbe, 0x2d, 0x44, 0x81, 0xbd,
  0x98, 0x72, 0x08, 0x3d, 0xdb, 0x54, 0xc7, 0xbe, 0x34, 0xed, 0xaf, 0x3d,
  0xb5, 0x05, 0xcf, 0x3e, 0x79, 0x9c, 0x03, 0xbe, 0x3c, 0xb6, 0x84, 0xbd,
  0x80, 0x2e, 0xbf, 0xbe, 0x2f, 0xef, 0x57, 0xbe, 0x2b, 0x60, 0x8c, 0x3d,
  0x47, 0xd2, 0xd1, 0x3e, 0xb4, 0x80, 0xad, 0x3d, 0x30, 0xdc, 0xba, 0xbc,
  0x0d, 0x4d, 0x30, 0x3f, 0x20, 0x61, 0x43, 0xbf, 0x6e, 0x57, 0x31, 0xbe,
  0x5d, 0xa0, 0xd0, 0xbc, 0x90, 0x92, 0x8a, 0x3c, 0x6f, 0xa0, 0xda, 0x3e,
  0x16, 0xa8, 0x2d, 0x3e, 0xd2, 0x3d, 0x4c, 0x3e, 0x24, 0x62, 0x1b, 0x3f,
  0x70, 0x62, 0x08, 0xbe, 0xe4, 0x7f, 0x9c, 0xbf, 0x96, 0x84, 0x77, 0xbe,
  0x8e, 0x54, 0x22, 0xbe, 0xf2, 0x8a, 0x05, 0xbe, 0xe5, 0x5a, 0x55, 0xbe,
  0x00, 0xdb, 0x0a, 0x3d, 0xb8, 0x8f, 0xc7, 0xbe, 0x62, 0x6f, 0x0d, 0x3e,
  0x5c, 0xb5, 0xaa, 0xbe, 0x9a, 0xe2, 0x57, 0x3e, 0xcf, 0xa7, 0xca, 0x3e,
  0x9a, 0x15, 0x05, 0xbe, 0xbc, 0x55, 0x99, 0xbd, 0x50, 0x9c, 0x8d, 0xbd,
  0xb0, 0x26, 0xc5, 0x3c, 0xf7, 0xde, 0xce, 0x3e, 0x81, 0xbf, 0xd8, 0x3e,
  0x58, 0x9e, 0xf7, 0x3d, 0x08, 0xcc, 0x2b, 0x3e, 0xf2, 0x58, 0x49, 0x3e,
  0x99, 0x36, 0x42, 0xbe, 0x6d, 0x91, 0xa1, 0x3e, 0x00, 0x1a, 0x28, 0xbf,
  0xdd, 0x9b, 0x3c, 0xbf, 0x67, 0x0b, 0x96, 0x3e, 0xdf, 0xb6, 0x17, 0x3e,
  0x49, 0x84, 0xb8, 0x3e, 0x66, 0xf7, 0x84, 0xbe, 0xa7, 0xac, 0xdc, 0x3e,
  0x41, 0xbd, 0xa6, 0xbe, 0xb9, 0xe8, 0x06, 0x3f, 0xd4, 0x51, 0x92, 0x3d,
  0x0b, 0x6e, 0x58, 0xbf, 0xa7, 0x29, 0xa6, 0xbe, 0x94, 0x17, 0x9e, 0x3d,
  0xac, 0xc7, 0xe6, 0x3d, 0xf8, 0x7b, 0xbe, 0xbe, 0x8c, 0xdb, 0x91, 0xbd,
  0x00, 0x6c, 0xec, 0x3b, 0xe0, 0x9f, 0x04, 0xbd, 0xd4, 0x0e, 0x9e, 0x3d,
  0xb6, 0x3f, 0xac, 0xbe, 0x4e, 0xb3, 0x69, 0x3e, 0xb8, 0x26, 0xab, 0xbd,
  0xc1, 0x47, 0x3c, 0xbe, 0xe6, 0x69, 0x53, 0x3e, 0x3d, 0x2a, 0xa7, 0xbe,
  0x36, 0x68, 0x3e, 0x3e, 0xb9, 0xa6, 0xa3, 0xbe, 0xaf, 0x2b, 0x3e, 0xbf,
  0xff, 0x62, 0x4d, 0xbf, 0x5f, 0xc5, 0x8c, 0x3e, 0xd8, 0x6c, 0xba, 0xbe,
  0xa0, 0xca, 0x2b, 0xbd, 0x4e, 0x84, 0xa2, 0x3e, 0x05, 0x43, 0x4f, 0xbe,
  0xc7, 0xe8, 0xb1, 0x3e, 0xd6, 0x32, 0x88, 0xbe, 0x5e, 0x09, 0x26, 0xbe,
  0x35, 0xcf, 0x9b, 0x3e, 0xc9, 0x62, 0x8a, 0x3e, 0x01, 0x83, 0xa4, 0xbe,
  0x57, 0x17, 0x04, 0x3f, 0x01, 0x8f, 0xda, 0xbe, 0x20, 0x54, 0x92, 0x3c,
  0x1d, 0xb3, 0xc9, 0xbe, 0x6f, 0x20, 0x30, 0xbd, 0xa2, 0x24, 0x2e, 0xbe,
  0x39, 0xf9, 0x96, 0x3e, 0x71, 0xfc, 0xd8, 0x3e, 0x22, 0xc0, 0xd0, 0xbe,
  0xf0, 0x24, 0x3a, 0xbd, 0x9c, 0x59, 0x1f, 0xbe, 0x20, 0x9b, 0x3c, 0x3e,
  0xb4, 0x74, 0x25, 0xbe, 0xb8, 0xa6, 0xf9, 0xbd, 0x80, 0x9d, 0x85, 0xbb,
  0xae, 0x67, 0x50, 0x3e, 0x41, 0xe2, 0xaf, 0x3e, 0xc0, 0x2a, 0xb4, 0x3c,
  0x3c, 0x60, 0xca, 0x3d, 0xf2, 0x1c, 0x1e, 0xbe, 0x0d, 0x59, 0xca, 0x3d,
  0x20, 0xe3, 0x4e, 0xbc, 0xa8, 0x34, 0x10, 0xbe, 0x00, 0x42, 0x65, 0x3d,
  0x09, 0x3d, 0x96, 0x3e, 0xa4, 0x85, 0x38, 0x3f, 0xaa, 0xd4, 0x41, 0x3e,
  0x95, 0x24, 0x09, 0x3e, 0x79, 0xeb, 0xd4, 0x3e, 0xa4, 0x7a, 0x34, 0xbe,
  0x34, 0xd3, 0xa2, 0x3d, 0xa0, 0x66, 0x90, 0xbd, 0x2b, 0x5c, 0x15, 0xba,
  0x17, 0xb0, 0x82, 0x3e, 0xae, 0x21, 0x5e, 0x3f, 0x90, 0x9f, 0x13, 0xbe,
  0x25, 0x76, 0x95, 0xbb, 0xb4, 0xc1, 0xe3, 0x3d, 0xda, 0xdc, 0x37, 0x3e,
  0x2a, 0x18, 0x71, 0x3e, 0xdc, 0x43, 0x60, 0x3e, 0x1d, 0xfc, 0x55, 0xbf,
  0x68, 0x68, 0xaa, 0xbd, 0x89, 0x41, 0x02, 0xbe, 0x36, 0xea, 0x09, 0x3e,
  0xeb, 0xf6, 0xce, 0x3e, 0xca, 0xbc, 0x48, 0x3e, 0x3b, 0x1a, 0xb9, 0xbe,
  0x10, 0xfe, 0x0b, 0x3f, 0x6a, 0xec, 0x3b, 0xbe, 0x6c, 0x41, 0xb1, 0xbf,
  0x00, 0x00, 0x00, 0x00, 0x06, 0xff, 0xff, 0xff, 0x04, 0x00, 0x00, 0x00,
  0x40, 0x00, 0x00, 0x00, 0x8b, 0x29, 0xea, 0x3e, 0xb4, 0xff, 0xd5, 0x3e,
  0x5e, 0x72, 0x2d, 0xbe, 0xda, 0x21, 0xcb, 0xbe, 0xe5, 0x43, 0x8e, 0xbe,
  0x56, 0xcd, 0xd9, 0xbd, 0x3c, 0xed, 0x65, 0x3e, 0x5c, 0x0c, 0x20, 0xbe,
  0xb2, 0x47, 0x89, 0x3e, 0x90, 0x93, 0x17, 0xbf, 0x00, 0x54, 0xf2, 0xbb,
  0xf8, 0x73, 0x99, 0xbd, 0x20, 0x37, 0x0c, 0xbe, 0xe6, 0xee, 0xd1, 0x3d,
  0x50, 0x44, 0x05, 0xbe, 0xc6, 0x24, 0x65, 0x3e, 0x00, 0x00, 0x00, 0x00,
  0x56, 0xff, 0xff, 0xff, 0x04, 0x00, 0x00, 0x00, 0x40, 0x00, 0x00, 0x00,
  0xf3, 0x7d, 0x44, 0xbd, 0x48, 0xbc, 0xc7, 0x3d, 0x00, 0x00, 0x00, 0x00,
  0x00, 0x00, 0x00, 0x00, 0x00, 0x00, 0x00, 0x00, 0x44, 0xbc, 0x05, 0x3f,
  0x05, 0x2e, 0x3f, 0xbf, 0x00, 0x00, 0x00, 0x00, 0xd3, 0x80, 0xd0, 0x3d,
  0x00, 0x00, 0x00, 0x00, 0x00, 0x00, 0x00, 0x00, 0x00, 0x00, 0x00, 0x00,
  0x00, 0x00, 0x00, 0x00, 0x0d, 0x0d, 0x1f, 0x3f, 0x00, 0x00, 0x00, 0x00,
  0xc5, 0xb9, 0x1e, 0xbf, 0x00, 0x00, 0x00, 0x00, 0xa6, 0xff, 0xff, 0xff,
  0x04, 0x00, 0x00, 0x00, 0x40, 0x00, 0x00, 0x00, 0x00, 0x00, 0x00, 0x00,
  0x2c, 0x4a, 0x85, 0xbe, 0x5e, 0xc4, 0xf8, 0xbc, 0x00, 0x00, 0x00, 0x00,
  0xb1, 0xe6, 0xe6, 0x3d, 0x9b, 0x02, 0x15, 0x3e, 0xc7, 0xf4, 0xb2, 0x3e,
  0x1d, 0xa5, 0x94, 0x3c, 0x37, 0xac, 0xcd, 0x3e, 0x00, 0x00, 0x00, 0x00,
  0x89, 0x20, 0x06, 0x3e, 0x00, 0x00, 0x00, 0x00, 0xbe, 0xf8, 0x93, 0x3e,
  0x19, 0x87, 0x79, 0xbb, 0x6b, 0xa0, 0xa7, 0xbe, 0x33, 0x2a, 0xb0, 0x3e,
  0x00, 0x00, 0x00, 0x00, 0x00, 0x00, 0x00, 0x00, 0x00, 0x00, 0x00, 0x00,
  0x00, 0x00, 0x06, 0x00, 0x08, 0x00, 0x04, 0x00, 0x06, 0x00, 0x00, 0x00,
  0x04, 0x00, 0x00, 0x00, 0x04, 0x00, 0x00, 0x00, 0xe0, 0xe7, 0x84, 0xbe,
  0x00, 0x00, 0x00, 0x00, 0x00, 0x00, 0x00, 0x00, 0x88, 0xfb, 0xff, 0xff,
  0x00, 0x00, 0x00, 0x00, 0x00, 0x00, 0x00, 0x00, 0x00, 0x00, 0x00, 0x00,
  0x98, 0xfb, 0xff, 0xff, 0x00, 0x00, 0x00, 0x00, 0x0f, 0x00, 0x00, 0x00,
  0x4d, 0x4c, 0x49, 0x52, 0x20, 0x43, 0x6f, 0x6e, 0x76, 0x65, 0x72, 0x74,
  0x65, 0x64, 0x2e, 0x00, 0x01, 0x00, 0x00, 0x00, 0x14, 0x00, 0x00, 0x00,
  0x00, 0x00, 0x0e, 0x00, 0x18, 0x00, 0x04, 0x00, 0x08, 0x00, 0x0c, 0x00,
  0x10, 0x00, 0x14, 0x00, 0x0e, 0x00, 0x00, 0x00, 0x00, 0x01, 0x00, 0x00,
  0xf4, 0x00, 0x00, 0x00, 0xe8, 0x00, 0x00, 0x00, 0x14, 0x00, 0x00, 0x00,
  0x04, 0x00, 0x00, 0x00, 0x04, 0x00, 0x00, 0x00, 0x6d, 0x61, 0x69, 0x6e,
  0x00, 0x00, 0x00, 0x00, 0x03, 0x00, 0x00, 0x00, 0x90, 0x00, 0x00, 0x00,
  0x48, 0x00, 0x00, 0x00, 0x04, 0x00, 0x00, 0x00, 0xce, 0xff, 0xff, 0xff,
  0x00, 0x00, 0x00, 0x08, 0x18, 0x00, 0x00, 0x00, 0x0c, 0x00, 0x00, 0x00,
  0x04, 0x00, 0x00, 0x00, 0x14, 0xfc, 0xff, 0xff, 0x01, 0x00, 0x00, 0x00,
  0x09, 0x00, 0x00, 0x00, 0x03, 0x00, 0x00, 0x00, 0x08, 0x00, 0x00, 0x00,
  0x06, 0x00, 0x00, 0x00, 0x01, 0x00, 0x00, 0x00, 0x00, 0x00, 0x0e, 0x00,
  0x14, 0x00, 0x00, 0x00, 0x08, 0x00, 0x0c, 0x00, 0x07, 0x00, 0x10, 0x00,
  0x0e, 0x00, 0x00, 0x00, 0x00, 0x00, 0x00, 0x08, 0x1c, 0x00, 0x00, 0x00,
  0x10, 0x00, 0x00, 0x00, 0x04, 0x00, 0x00, 0x00, 0xba, 0xff, 0xff, 0xff,
  0x00, 0x00, 0x00, 0x01, 0x01, 0x00, 0x00, 0x00, 0x08, 0x00, 0x00, 0x00,
  0x03, 0x00, 0x00, 0x00, 0x07, 0x00, 0x00, 0x00, 0x05, 0x00, 0x00, 0x00,
  0x02, 0x00, 0x00, 0x00, 0x00, 0x00, 0x0e, 0x00, 0x16, 0x00, 0x00, 0x00,
  0x08, 0x00, 0x0c, 0x00, 0x07, 0x00, 0x10, 0x00, 0x0e, 0x00, 0x00, 0x00,
  0x00, 0x00, 0x00, 0x08, 0x24, 0x00, 0x00, 0x00, 0x18, 0x00, 0x00, 0x00,
  0x0c, 0x00, 0x00, 0x00, 0x00, 0x00, 0x06, 0x00, 0x08, 0x00, 0x07, 0x00,
  0x06, 0x00, 0x00, 0x00, 0x00, 0x00, 0x00, 0x01, 0x01, 0x00, 0x00, 0x00,
  0x07, 0x00, 0x00, 0x00, 0x03, 0x00, 0x00, 0x00, 0x00, 0x00, 0x00, 0x00,
  0x04, 0x00, 0x00, 0x00, 0x03, 0x00, 0x00, 0x00, 0x01, 0x00, 0x00, 0x00,
  0x09, 0x00, 0x00, 0x00, 0x01, 0x00, 0x00, 0x00, 0x00, 0x00, 0x00, 0x00,
  0x0a, 0x00, 0x00, 0x00, 0x08, 0x03, 0x00, 0x00, 0xbc, 0x02, 0x00, 0x00,
  0x74, 0x02, 0x00, 0x00, 0x40, 0x02, 0x00, 0x00, 0xfc, 0x01, 0x00, 0x00,
  0xb4, 0x01, 0x00, 0x00, 0x6c, 0x01, 0x00, 0x00, 0xe8, 0x00, 0x00, 0x00,
  0x5c, 0x00, 0x00, 0x00, 0x04, 0x00, 0x00, 0x00, 0x34, 0xfd, 0xff, 0xff,
  0x44, 0x00, 0x00, 0x00, 0x0a, 0x00, 0x00, 0x00, 0x1c, 0x00, 0x00, 0x00,
  0x14, 0x00, 0x00, 0x00, 0x04, 0x00, 0x00, 0x00, 0x02, 0x00, 0x00, 0x00,
  0xff, 0xff, 0xff, 0xff, 0x01, 0x00, 0x00, 0x00, 0x20, 0xfd, 0xff, 0xff,
  0x19, 0x00, 0x00, 0x00, 0x53, 0x74, 0x61, 0x74, 0x65, 0x66, 0x75, 0x6c,
  0x50, 0x61, 0x72, 0x74, 0x69, 0x74, 0x69, 0x6f, 0x6e, 0x65, 0x64, 0x43,
  0x61, 0x6c, 0x6c, 0x3a, 0x30, 0x00, 0x00, 0x00, 0x02, 0x00, 0x00, 0x00,
  0x01, 0x00, 0x00, 0x00, 0x01, 0x00, 0x00, 0x00, 0x88, 0xfd, 0xff, 0xff,
  0x78, 0x00, 0x00, 0x00, 0x09, 0x00, 0x00, 0x00, 0x1c, 0x00, 0x00, 0x00,
  0x14, 0x00, 0x00, 0x00, 0x04, 0x00, 0x00, 0x00, 0x02, 0x00, 0x00, 0x00,
  0xff, 0xff, 0xff, 0xff, 0x10, 0x00, 0x00, 0x00, 0x74, 0xfd, 0xff, 0xff,
  0x4c, 0x00, 0x00, 0x00, 0x73, 0x65, 0x71, 0x75, 0x65, 0x6e, 0x74, 0x69,
  0x61, 0x6c, 0x2f, 0x64, 0x65, 0x6e, 0x73, 0x65, 0x5f, 0x31, 0x2f, 0x4d,
  0x61, 0x74, 0x4d, 0x75, 0x6c, 0x3b, 0x73, 0x65, 0x71, 0x75, 0x65, 0x6e,
  0x74, 0x69, 0x61, 0x6c, 0x2f, 0x64, 0x65, 0x6e, 0x73, 0x65, 0x5f, 0x31,
  0x2f, 0x52, 0x65, 0x6c, 0x75, 0x3b, 0x73, 0x65, 0x71, 0x75, 0x65, 0x6e,
  0x74, 0x69, 0x61, 0x6c, 0x2f, 0x64, 0x65, 0x6e, 0x73, 0x65, 0x5f, 0x31,
  0x2f, 0x42, 0x69, 0x61, 0x73, 0x41, 0x64, 0x64, 0x00, 0x00, 0x00, 0x00,
  0x02, 0x00, 0x00, 0x00, 0x01, 0x00, 0x00, 0x00, 0x10, 0x00, 0x00, 0x00,
  0x10, 0xfe, 0xff, 0xff, 0x70, 0x00, 0x00, 0x00, 0x08, 0x00, 0x00, 0x00,
  0x1c, 0x00, 0x00, 0x00, 0x14, 0x00, 0x00, 0x00, 0x04, 0x00, 0x00, 0x00,
  0x02, 0x00, 0x00, 0x00, 0xff, 0xff, 0xff, 0xff, 0x10, 0x00, 0x00, 0x00,
  0xfc, 0xfd, 0xff, 0xff, 0x46, 0x00, 0x00, 0x00, 0x73, 0x65, 0x71, 0x75,
  0x65, 0x6e, 0x74, 0x69, 0x61, 0x6c, 0x2f, 0x64, 0x65, 0x6e, 0x73, 0x65,
  0x2f, 0x4d, 0x61, 0x74, 0x4d, 0x75, 0x6c, 0x3b, 0x73, 0x65, 0x71, 0x75,
  0x65, 0x6e, 0x74, 0x69, 0x61, 0x6c, 0x2f, 0x64, 0x65, 0x6e, 0x73, 0x65,
  0x2f, 0x52, 0x65, 0x6c, 0x75, 0x3b, 0x73, 0x65, 0x71, 0x75, 0x65, 0x6e,
  0x74, 0x69, 0x61, 0x6c, 0x2f, 0x64, 0x65, 0x6e, 0x73, 0x65, 0x2f, 0x42,
  0x69, 0x61, 0x73, 0x41, 0x64, 0x64, 0x00, 0x00, 0x02, 0x00, 0x00, 0x00,
  0x01, 0x00, 0x00, 0x00, 0x10, 0x00, 0x00, 0x00, 0xd2, 0xfe, 0xff, 0xff,
  0x34, 0x00, 0x00, 0x00, 0x07, 0x00, 0x00, 0x00, 0x0c, 0x00, 0x00, 0x00,
  0x04, 0x00, 0x00, 0x00, 0x6c, 0xfe, 0xff, 0xff, 0x19, 0x00, 0x00, 0x00,
  0x73, 0x65, 0x71, 0x75, 0x65, 0x6e, 0x74, 0x69, 0x61, 0x6c, 0x2f, 0x64,
  0x65, 0x6e, 0x73, 0x65, 0x5f, 0x32, 0x2f, 0x4d, 0x61, 0x74, 0x4d, 0x75,
  0x6c, 0x00, 0x00, 0x00, 0x02, 0x00, 0x00, 0x00, 0x01, 0x00, 0x00, 0x00,
  0x10, 0x00, 0x00, 0x00, 0x16, 0xff, 0xff, 0xff, 0x34, 0x00, 0x00, 0x00,
  0x06, 0x00, 0x00, 0x00, 0x0c, 0x00, 0x00, 0x00, 0x04, 0x00, 0x00, 0x00,
  0xb0, 0xfe, 0xff, 0xff, 0x19, 0x00, 0x00, 0x00, 0x73, 0x65, 0x71, 0x75,
  0x65, 0x6e, 0x74, 0x69, 0x61, 0x6c, 0x2f, 0x64, 0x65, 0x6e, 0x73, 0x65,
  0x5f, 0x31, 0x2f, 0x4d, 0x61, 0x74, 0x4d, 0x75, 0x6c, 0x00, 0x00, 0x00,
  0x02, 0x00, 0x00, 0x00, 0x10, 0x00, 0x00, 0x00, 0x10, 0x00, 0x00, 0x00,
  0x5a, 0xff, 0xff, 0xff, 0x30, 0x00, 0x00, 0x00, 0x05, 0x00, 0x00, 0x00,
  0x0c, 0x00, 0x00, 0x00, 0x04, 0x00, 0x00, 0x00, 0xf4, 0xfe, 0xff, 0xff,
  0x17, 0x00, 0x00, 0x00, 0x73, 0x65, 0x71, 0x75, 0x65, 0x6e, 0x74, 0x69,
  0x61, 0x6c, 0x2f, 0x64, 0x65, 0x6e, 0x73, 0x65, 0x2f, 0x4d, 0x61, 0x74,
  0x4d, 0x75, 0x6c, 0x00, 0x02, 0x00, 0x00, 0x00, 0x10, 0x00, 0x00, 0x00,
  0x01, 0x00, 0x00, 0x00, 0x9a, 0xff, 0xff, 0xff, 0x24, 0x00, 0x00, 0x00,
  0x04, 0x00, 0x00, 0x00, 0x0c, 0x00, 0x00, 0x00, 0x04, 0x00, 0x00, 0x00,
  0x34, 0xff, 0xff, 0xff, 0x0a, 0x00, 0x00, 0x00, 0x64, 0x65, 0x6e, 0x73,
  0x65, 0x2f, 0x62, 0x69, 0x61, 0x73, 0x00, 0x00, 0x01, 0x00, 0x00, 0x00,
  0x10, 0x00, 0x00, 0x00, 0xca, 0xff, 0xff, 0xff, 0x28, 0x00, 0x00, 0x00,
  0x03, 0x00, 0x00, 0x00, 0x0c, 0x00, 0x00, 0x00, 0x04, 0x00, 0x00, 0x00,
  0x64, 0xff, 0xff, 0xff, 0x0c, 0x00, 0x00, 0x00, 0x64, 0x65, 0x6e, 0x73,
  0x65, 0x5f, 0x31, 0x2f, 0x62, 0x69, 0x61, 0x73, 0x00, 0x00, 0x00, 0x00,
  0x01, 0x00, 0x00, 0x00, 0x10, 0x00, 0x00, 0x00, 0x00, 0x00, 0x0e, 0x00,
  0x14, 0x00, 0x04, 0x00, 0x00, 0x00, 0x08, 0x00, 0x0c, 0x00, 0x10, 0x00,
  0x0e, 0x00, 0x00, 0x00, 0x28, 0x00, 0x00, 0x00, 0x02, 0x00, 0x00, 0x00,
  0x0c, 0x00, 0x00, 0x00, 0x04, 0x00, 0x00, 0x00, 0xa8, 0xff, 0xff, 0xff,
  0x0c, 0x00, 0x00, 0x00, 0x64, 0x65, 0x6e, 0x73, 0x65, 0x5f, 0x32, 0x2f,
  0x62, 0x69, 0x61, 0x73, 0x00, 0x00, 0x00, 0x00, 0x01, 0x00, 0x00, 0x00,
  0x01, 0x00, 0x00, 0x00, 0x14, 0x00, 0x18, 0x00, 0x04, 0x00, 0x00, 0x00,
  0x08, 0x00, 0x0c, 0x00, 0x10, 0x00, 0x00, 0x00, 0x00, 0x00, 0x14, 0x00,
  0x14, 0x00, 0x00, 0x00, 0x4c, 0x00, 0x00, 0x00, 0x01, 0x00, 0x00, 0x00,
  0x20, 0x00, 0x00, 0x00, 0x18, 0x00, 0x00, 0x00, 0x04, 0x00, 0x00, 0x00,
  0x02, 0x00, 0x00, 0x00, 0xff, 0xff, 0xff, 0xff, 0x01, 0x00, 0x00, 0x00,
  0x04, 0x00, 0x04, 0x00, 0x04, 0x00, 0x00, 0x00, 0x1d, 0x00, 0x00, 0x00,
  0x73, 0x65, 0x72, 0x76, 0x69, 0x6e, 0x67, 0x5f, 0x64, 0x65, 0x66, 0x61,
  0x75, 0x6c, 0x74, 0x5f, 0x64, 0x65, 0x6e, 0x73, 0x65, 0x5f, 0x69, 0x6e,
  0x70, 0x75, 0x74, 0x3a, 0x30, 0x00, 0x00, 0x00, 0x02, 0x00, 0x00, 0x00,
  0x01, 0x00, 0x00, 0x00, 0x01, 0x00, 0x00, 0x00, 0x01, 0x00, 0x00, 0x00,
  0x10, 0x00, 0x00, 0x00, 0x0c, 0x00, 0x10, 0x00, 0x07, 0x00, 0x00, 0x00,
  0x08, 0x00, 0x0c, 0x00, 0x0c, 0x00, 0x00, 0x00, 0x00, 0x00, 0x00, 0x09,
  0x09, 0x00, 0x00, 0x00, 0x09, 0x00, 0x00, 0x00
};

#endif //SINE_MODEL_H